TRT-101303-MinMaxCalibration
images: 3c010204
/model.0/conv/Conv_output_0: 3f8e9ae7
/model.0/act/Sigmoid_output_0: 3c010204
/model.0/act/Mul_output_0: 3f8189ab
/model.1/conv/Conv_output_0: 3f9f5c6a
/model.1/act/Sigmoid_output_0: 3c010204
/model.1/act/Mul_output_0: 3f9f5c6a
/model.2/cv1/conv/Conv_output_0: 3f8818d2
/model.2/cv1/act/Sigmoid_output_0: 3c010204
/model.2/cv1/act/Mul_output_0: 3eb2f407
/model.2/Split_output_0: 3e8e01c2
/model.2/Split_output_1: 3eb2f407
/model.2/m.0/cv1/conv/Conv_output_0: 3e8a91b5
/model.2/m.0/cv2/conv/Conv_output_0: 3eb5ca3e
/model.2/m.0/cv1/act/Sigmoid_output_0: 3c0101b1
/model.2/m.0/cv2/act/Sigmoid_output_0: 3c010204
/model.2/m.0/cv1/act/Mul_output_0: 3db9ed15
/model.2/m.0/cv2/act/Mul_output_0: 3e194eec
/model.2/m.0/m/m.0/cv1/conv/Conv_output_0: 3e414f0b
/model.2/m.0/m/m.0/cv1/act/Sigmoid_output_0: 3c010204
/model.2/m.0/m/m.0/cv1/act/Mul_output_0: 3e23d898
/model.2/m.0/m/m.0/cv2/conv/Conv_output_0: 3e082da1
/model.2/m.0/m/m.0/cv2/act/Sigmoid_output_0: 3c0101e7
/model.2/m.0/m/m.0/cv2/act/Mul_output_0: 3dcaf476
/model.2/m.0/m/m.0/Add_output_0: 3de9fb4e
/model.2/m.0/m/m.1/cv1/conv/Conv_output_0: 3dd0d7e1
/model.2/m.0/m/m.1/cv1/act/Sigmoid_output_0: 3c00ffe8
/model.2/m.0/m/m.1/cv1/act/Mul_output_0: 3d9ba4eb
/model.2/m.0/m/m.1/cv2/conv/Conv_output_0: 3dd59970
/model.2/m.0/m/m.1/cv2/act/Sigmoid_output_0: 3c0101de
/model.2/m.0/m/m.1/cv2/act/Mul_output_0: 3dc69a33
/model.2/m.0/m/m.1/Add_output_0: 3e13ba1e
/model.2/m.0/Concat_output_0: 3e194eec
/model.2/m.0/cv3/conv/Conv_output_0: 3e517436
/model.2/m.0/cv3/act/Sigmoid_output_0: 3c010204
/model.2/m.0/cv3/act/Mul_output_0: 3e2551a9
/model.2/Concat_output_0: 3eb2f407
/model.2/cv2/conv/Conv_output_0: 3e62af2a
/model.2/cv2/act/Sigmoid_output_0: 3c010204
/model.2/cv2/act/Mul_output_0: 3e01d838
/model.3/conv/Conv_output_0: 3de46d0c
/model.3/act/Sigmoid_output_0: 3c0101fc
/model.3/act/Mul_output_0: 3ddef95a
/model.4/cv1/conv/Conv_output_0: 3e0003c2
/model.4/cv1/act/Sigmoid_output_0: 3c010203
/model.4/cv1/act/Mul_output_0: 3e0003c1
/model.4/Split_output_0: 3dd8052b
/model.4/Split_output_1: 3e0003c1
/model.4/m.0/cv1/conv/Conv_output_0: 3d8e0f81
/model.4/m.0/cv2/conv/Conv_output_0: 3e17f733
/model.4/m.0/cv1/act/Sigmoid_output_0: 3c00fd1e
/model.4/m.0/cv2/act/Sigmoid_output_0: 3c010204
/model.4/m.0/cv1/act/Mul_output_0: 3d8e0a1c
/model.4/m.0/cv2/act/Mul_output_0: 3e17f733
/model.4/m.0/m/m.0/cv1/conv/Conv_output_0: 3daac497
/model.4/m.0/m/m.0/cv1/act/Sigmoid_output_0: 3c00fff2
/model.4/m.0/m/m.0/cv1/act/Mul_output_0: 3d9bf019
/model.4/m.0/m/m.0/cv2/conv/Conv_output_0: 3dace374
/model.4/m.0/m/m.0/cv2/act/Sigmoid_output_0: 3c01014b
/model.4/m.0/m/m.0/cv2/act/Mul_output_0: 3dace27b
/model.4/m.0/m/m.0/Add_output_0: 3dd19fa7
/model.4/m.0/m/m.1/cv1/conv/Conv_output_0: 3db27310
/model.4/m.0/m/m.1/cv1/act/Sigmoid_output_0: 3c010010
/model.4/m.0/m/m.1/cv1/act/Mul_output_0: 3d9cdc92
/model.4/m.0/m/m.1/cv2/conv/Conv_output_0: 3dc7caef
/model.4/m.0/m/m.1/cv2/act/Sigmoid_output_0: 3c0101c7
/model.4/m.0/m/m.1/cv2/act/Mul_output_0: 3dbece1d
/model.4/m.0/m/m.1/Add_output_0: 3e00e0ff
/model.4/m.0/Concat_output_0: 3e17f733
/model.4/m.0/cv3/conv/Conv_output_0: 3dfe3b3a
/model.4/m.0/cv3/act/Sigmoid_output_0: 3c0101b4
/model.4/m.0/cv3/act/Mul_output_0: 3dba921e
/model.4/Concat_output_0: 3e0003c1
/model.4/cv2/conv/Conv_output_0: 3dd807e1
/model.4/cv2/act/Sigmoid_output_0: 3c0101f7
/model.4/cv2/act/Mul_output_0: 3dd807cc
/model.5/conv/Conv_output_0: 3db9211b
/model.5/act/Sigmoid_output_0: 3c0101ac
/model.5/act/Mul_output_0: 3db9209d
/model.6/cv1/conv/Conv_output_0: 3e051bfe
/model.6/cv1/act/Sigmoid_output_0: 3c010204
/model.6/cv1/act/Mul_output_0: 3e051bfe
/model.6/Split_output_0: 3de86845
/model.6/Split_output_1: 3e051bfe
/model.6/m.0/cv1/conv/Conv_output_0: 3dd44749
/model.6/m.0/cv2/conv/Conv_output_0: 3e0c8c48
/model.6/m.0/cv1/act/Sigmoid_output_0: 3c0101f4
/model.6/m.0/cv2/act/Sigmoid_output_0: 3c010204
/model.6/m.0/cv1/act/Mul_output_0: 3dd4472e
/model.6/m.0/cv2/act/Mul_output_0: 3e0c8c48
/model.6/m.0/m/m.0/cv1/conv/Conv_output_0: 3dc606de
/model.6/m.0/m/m.0/cv1/act/Sigmoid_output_0: 3c0101b1
/model.6/m.0/m/m.0/cv1/act/Mul_output_0: 3db9ea9f
/model.6/m.0/m/m.0/cv2/conv/Conv_output_0: 3dc200fb
/model.6/m.0/m/m.0/cv2/act/Sigmoid_output_0: 3c0101ca
/model.6/m.0/m/m.0/cv2/act/Mul_output_0: 3dbf7b73
/model.6/m.0/m/m.0/Add_output_0: 3dd5b05c
/model.6/m.0/m/m.1/cv1/conv/Conv_output_0: 3dcc4115
/model.6/m.0/m/m.1/cv1/act/Sigmoid_output_0: 3c0101ea
/model.6/m.0/m/m.1/cv1/act/Mul_output_0: 3dcc40ec
/model.6/m.0/m/m.1/cv2/conv/Conv_output_0: 3e123657
/model.6/m.0/m/m.1/cv2/act/Sigmoid_output_0: 3c010204
/model.6/m.0/m/m.1/cv2/act/Mul_output_0: 3e123657
/model.6/m.0/m/m.1/Add_output_0: 3e388420
/model.6/m.0/Concat_output_0: 3e388420
/model.6/m.0/cv3/conv/Conv_output_0: 3df2cab9
/model.6/m.0/cv3/act/Sigmoid_output_0: 3c010201
/model.6/m.0/cv3/act/Mul_output_0: 3df2cab3
/model.6/Concat_output_0: 3e051bfe
/model.6/cv2/conv/Conv_output_0: 3ded7c15
/model.6/cv2/act/Sigmoid_output_0: 3c010201
/model.6/cv2/act/Mul_output_0: 3ded7c0f
/model.7/conv/Conv_output_0: 3df91d36
/model.7/act/Sigmoid_output_0: 3c010202
/model.7/act/Mul_output_0: 3df91d32
/model.8/cv1/conv/Conv_output_0: 3e1cbf13
/model.8/cv1/act/Sigmoid_output_0: 3c010204
/model.8/cv1/act/Mul_output_0: 3e1cbf13
/model.8/Split_output_0: 3e1cbf13
/model.8/Split_output_1: 3e1196b1
/model.8/m.0/cv1/conv/Conv_output_0: 3e03950c
/model.8/m.0/cv2/conv/Conv_output_0: 3dc9f302
/model.8/m.0/cv1/act/Sigmoid_output_0: 3c010204
/model.8/m.0/cv2/act/Sigmoid_output_0: 3c0101e5
/model.8/m.0/cv1/act/Mul_output_0: 3e03950c
/model.8/m.0/cv2/act/Mul_output_0: 3dc9c97d
/model.8/m.0/m/m.0/cv1/conv/Conv_output_0: 3e037ae5
/model.8/m.0/m/m.0/cv1/act/Sigmoid_output_0: 3c010204
/model.8/m.0/m/m.0/cv1/act/Mul_output_0: 3e037ae5
/model.8/m.0/m/m.0/cv2/conv/Conv_output_0: 3debb742
/model.8/m.0/m/m.0/cv2/act/Sigmoid_output_0: 3c010200
/model.8/m.0/m/m.0/cv2/act/Mul_output_0: 3debb73a
/model.8/m.0/m/m.0/Add_output_0: 3e0506c3
/model.8/m.0/m/m.1/cv1/conv/Conv_output_0: 3dd7b6de
/model.8/m.0/m/m.1/cv1/act/Sigmoid_output_0: 3c0101f7
/model.8/m.0/m/m.1/cv1/act/Mul_output_0: 3dd7b6c8
/model.8/m.0/m/m.1/cv2/conv/Conv_output_0: 3dd5dde7
/model.8/m.0/m/m.1/cv2/act/Sigmoid_output_0: 3c0101f5
/model.8/m.0/m/m.1/cv2/act/Mul_output_0: 3dd5ddcf
/model.8/m.0/m/m.1/Add_output_0: 3e1efa53
/model.8/m.0/Concat_output_0: 3e1efa53
/model.8/m.0/cv3/conv/Conv_output_0: 3dd50651
/model.8/m.0/cv3/act/Sigmoid_output_0: 3c0101f5
/model.8/m.0/cv3/act/Mul_output_0: 3dd50637
/model.8/Concat_output_0: 3e1cbf13
/model.8/cv2/conv/Conv_output_0: 3e02fc72
/model.8/cv2/act/Sigmoid_output_0: 3c010203
/model.8/cv2/act/Mul_output_0: 3dfaac5e
/model.9/cv1/conv/Conv_output_0: 3dfcdb95
/model.9/cv1/act/Sigmoid_output_0: 3c010203
/model.9/cv1/act/Mul_output_0: 3dfcdb93
/model.9/m/MaxPool_output_0: 3dfcdb93
/model.9/m_1/MaxPool_output_0: 3dfcdb93
/model.9/m_2/MaxPool_output_0: 3dfcdb93
/model.9/Concat_output_0: 3dfcdb93
/model.9/cv2/conv/Conv_output_0: 3da4b58e
/model.9/cv2/act/Sigmoid_output_0: 3c00f9c5
/model.9/cv2/act/Mul_output_0: 3d85ca9e
/model.10/cv1/conv/Conv_output_0: 3de9b263
/model.10/cv1/act/Sigmoid_output_0: 3c010200
/model.10/cv1/act/Mul_output_0: 3de9b25c
/model.10/Split_output_0: 3dcc53ff
/model.10/Split_output_1: 3de9b25c
/model.10/m/m.0/attn/qkv/conv/Conv_output_0: 3da1b7c3
/model.10/m/m.0/attn/Reshape_output_0: 3da1b7c3
/model.10/m/m.0/attn/Split_output_0: 3d82ea4a
/model.10/m/m.0/attn/Split_output_1: 3d8ff006
/model.10/m/m.0/attn/Split_output_2: 3da1b7c3
/model.10/m/m.0/attn/Transpose_output_0: 3d82ea4a
/model.10/m/m.0/attn/Reshape_2_output_0: 3da1b7c3
/model.10/m/m.0/attn/MatMul_output_0: 3fda7e47
/model.10/m/m.0/attn/pe/conv/Conv_output_0: 3d870f59
/model.10/m/m.0/attn/Constant_1_output_0_output: 3ab671d7
ONNXTRT_Broadcast_output: 3ab671d7
/model.10/m/m.0/attn/Mul_output_0: 3e9a7f81
/model.10/m/m.0/attn/Softmax_output: 3bf3018d
/model.10/m/m.0/attn/Softmax_output_0: 3bf3018d
/model.10/m/m.0/attn/Transpose_1_output_0: 3bf3018d
/model.10/m/m.0/attn/MatMul_1_output_0: 3d935ac3
/model.10/m/m.0/attn/Reshape_1_output_0: 3d935ac3
/model.10/m/m.0/attn/Add_output_0: 3d88e0fc
/model.10/m/m.0/attn/proj/conv/Conv_output_0: 3d8a9ca5
/model.10/m/m.0/Add_output_0: 3ddfc3e5
/model.10/m/m.0/ffn/ffn.0/conv/Conv_output_0: 3d912c8a
/model.10/m/m.0/ffn/ffn.0/act/Sigmoid_output_0: 3c00fdf6
/model.10/m/m.0/ffn/ffn.0/act/Mul_output_0: 3d9127fa
/model.10/m/m.0/ffn/ffn.1/conv/Conv_output_0: 3d99efd9
/model.10/m/m.0/Add_1_output_0: 3db10f9e
/model.10/Concat_output_0: 3dcc53ff
/model.10/cv2/conv/Conv_output_0: 3dbde395
/model.10/cv2/act/Sigmoid_output_0: 3c00fb6a
/model.10/cv2/act/Mul_output_0: 3d894cf7
/model.11/Resize_output_0: 3d894cf7
/model.12/Concat_output_0: 3ded7c0f
/model.13/cv1/conv/Conv_output_0: 3dcf80d6
/model.13/cv1/act/Sigmoid_output_0: 3c0101ee
/model.13/cv1/act/Mul_output_0: 3dcf80b2
/model.13/Split_output_0: 3dcf80b2
/model.13/Split_output_1: 3dc25538
/model.13/m.0/cv1/conv/Conv_output_0: 3dcbb32c
/model.13/m.0/cv2/conv/Conv_output_0: 3e5ce66c
/model.13/m.0/cv1/act/Sigmoid_output_0: 3c0101e9
/model.13/m.0/cv2/act/Sigmoid_output_0: 3c010204
/model.13/m.0/cv1/act/Mul_output_0: 3dcbb301
/model.13/m.0/cv2/act/Mul_output_0: 3e271583
/model.13/m.0/m/m.0/cv1/conv/Conv_output_0: 3e118c5c
/model.13/m.0/m/m.0/cv1/act/Sigmoid_output_0: 3c010204
/model.13/m.0/m/m.0/cv1/act/Mul_output_0: 3e118c5c
/model.13/m.0/m/m.0/cv2/conv/Conv_output_0: 3e29f471
/model.13/m.0/m/m.0/cv2/act/Sigmoid_output_0: 3c010204
/model.13/m.0/m/m.0/cv2/act/Mul_output_0: 3e29f471
/model.13/m.0/m/m.0/Add_output_0: 3e2adf9c
/model.13/m.0/m/m.1/cv1/conv/Conv_output_0: 3e0e678e
/model.13/m.0/m/m.1/cv1/act/Sigmoid_output_0: 3c010204
/model.13/m.0/m/m.1/cv1/act/Mul_output_0: 3e0e678e
/model.13/m.0/m/m.1/cv2/conv/Conv_output_0: 3e5fe0af
/model.13/m.0/m/m.1/cv2/act/Sigmoid_output_0: 3c010204
/model.13/m.0/m/m.1/cv2/act/Mul_output_0: 3e5fe0af
/model.13/m.0/m/m.1/Add_output_0: 3e5e7d92
/model.13/m.0/Concat_output_0: 3e5e7d92
/model.13/m.0/cv3/conv/Conv_output_0: 3de670be
/model.13/m.0/cv3/act/Sigmoid_output_0: 3c0101e0
/model.13/m.0/cv3/act/Mul_output_0: 3dc746f5
/model.13/Concat_output_0: 3dcf80b2
/model.13/cv2/conv/Conv_output_0: 3e03a7f4
/model.13/cv2/act/Sigmoid_output_0: 3c0101e4
/model.13/cv2/act/Mul_output_0: 3dc95ae1
/model.14/Resize_output_0: 3dc95ae1
/model.15/Concat_output_0: 3dd807cc
/model.16/cv1/conv/Conv_output_0: 3dbbaa91
/model.16/cv1/act/Sigmoid_output_0: 3c0101b9
/model.16/cv1/act/Mul_output_0: 3dbbaa24
/model.16/Split_output_0: 3dbbaa24
/model.16/Split_output_1: 3d7842b4
/model.16/m.0/cv1/conv/Conv_output_0: 3d63dd75
/model.16/m.0/cv2/conv/Conv_output_0: 3e0c117f
/model.16/m.0/cv1/act/Sigmoid_output_0: 3c00c67c
/model.16/m.0/cv2/act/Sigmoid_output_0: 3c010204
/model.16/m.0/cv1/act/Mul_output_0: 3d4b5cad
/model.16/m.0/cv2/act/Mul_output_0: 3e0c117f
/model.16/m.0/m/m.0/cv1/conv/Conv_output_0: 3de643f8
/model.16/m.0/m/m.0/cv1/act/Sigmoid_output_0: 3c0101ff
/model.16/m.0/m/m.0/cv1/act/Mul_output_0: 3de643ef
/model.16/m.0/m/m.0/cv2/conv/Conv_output_0: 3e189ed4
/model.16/m.0/m/m.0/cv2/act/Sigmoid_output_0: 3c010204
/model.16/m.0/m/m.0/cv2/act/Mul_output_0: 3e189ed4
/model.16/m.0/m/m.0/Add_output_0: 3e1ae176
/model.16/m.0/m/m.1/cv1/conv/Conv_output_0: 3e11bf8f
/model.16/m.0/m/m.1/cv1/act/Sigmoid_output_0: 3c010204
/model.16/m.0/m/m.1/cv1/act/Mul_output_0: 3e11bf8f
/model.16/m.0/m/m.1/cv2/conv/Conv_output_0: 3e82a546
/model.16/m.0/m/m.1/cv2/act/Sigmoid_output_0: 3c010204
/model.16/m.0/m/m.1/cv2/act/Mul_output_0: 3e82a546
/model.16/m.0/m/m.1/Add_output_0: 3e82b92e
/model.16/m.0/Concat_output_0: 3e82b92e
/model.16/m.0/cv3/conv/Conv_output_0: 3e00eb90
/model.16/m.0/cv3/act/Sigmoid_output_0: 3c010151
/model.16/m.0/cv3/act/Mul_output_0: 3dad6e97
/model.16/Concat_output_0: 3dbbaa24
/model.16/cv2/conv/Conv_output_0: 3dc6b1fa
/model.16/cv2/act/Sigmoid_output_0: 3c0101cc
/model.16/cv2/act/Mul_output_0: 3dc04a46
/model.17/conv/Conv_output_0: 3dfa94b4
/model.23/cv2.0/cv2.0.0/conv/Conv_output_0: 3e3d866b
/model.23/cv3.0/cv3.0.0/cv3.0.0.0/conv/Conv_output_0: 3e46f6af
/model.17/act/Sigmoid_output_0: 3c010203
/model.23/cv2.0/cv2.0.0/act/Sigmoid_output_0: 3c010204
/model.23/cv3.0/cv3.0.0/cv3.0.0.0/act/Sigmoid_output_0: 3c010204
/model.17/act/Mul_output_0: 3dfa94b1
/model.23/cv2.0/cv2.0.0/act/Mul_output_0: 3e3d866b
/model.23/cv3.0/cv3.0.0/cv3.0.0.0/act/Mul_output_0: 3e46f6af
/model.18/Concat_output_0: 3dfa94b1
/model.23/cv2.0/cv2.0.1/conv/Conv_output_0: 3ed0fc74
/model.23/cv3.0/cv3.0.0/cv3.0.0.1/conv/Conv_output_0: 3e2513a9
/model.19/cv1/conv/Conv_output_0: 3e35a8a4
/model.23/cv2.0/cv2.0.1/act/Sigmoid_output_0: 3c010204
/model.23/cv3.0/cv3.0.0/cv3.0.0.1/act/Sigmoid_output_0: 3c010204
/model.19/cv1/act/Sigmoid_output_0: 3c010204
/model.23/cv2.0/cv2.0.1/act/Mul_output_0: 3ea150d4
/model.23/cv3.0/cv3.0.0/cv3.0.0.1/act/Mul_output_0: 3e2513a9
/model.19/cv1/act/Mul_output_0: 3e35a8a4
/model.23/cv2.0/cv2.0.2/Conv_output_0: 3f05e821
/model.23/cv3.0/cv3.0.1/cv3.0.1.0/conv/Conv_output_0: 3f190f62
/model.19/Split_output_0: 3e0bd136
/model.19/Split_output_1: 3e35a8a4
/model.23/cv3.0/cv3.0.1/cv3.0.1.0/act/Sigmoid_output_0: 3c010204
/model.19/m.0/cv1/conv/Conv_output_0: 3e239530
/model.19/m.0/cv2/conv/Conv_output_0: 3e3f1d44
/model.23/cv3.0/cv3.0.1/cv3.0.1.0/act/Mul_output_0: 3f190f62
/model.19/m.0/cv1/act/Sigmoid_output_0: 3c010204
/model.19/m.0/cv2/act/Sigmoid_output_0: 3c010204
/model.23/cv3.0/cv3.0.1/cv3.0.1.1/conv/Conv_output_0: 3f394891
/model.19/m.0/cv1/act/Mul_output_0: 3e239530
/model.19/m.0/cv2/act/Mul_output_0: 3e3f1d44
/model.23/cv3.0/cv3.0.1/cv3.0.1.1/act/Sigmoid_output_0: 3c010204
/model.19/m.0/m/m.0/cv1/conv/Conv_output_0: 3e379605
/model.23/cv3.0/cv3.0.1/cv3.0.1.1/act/Mul_output_0: 3f394891
/model.19/m.0/m/m.0/cv1/act/Sigmoid_output_0: 3c010204
/model.23/cv3.0/cv3.0.2/Conv_output_0: 3f2533b6
/model.19/m.0/m/m.0/cv1/act/Mul_output_0: 3e379605
/model.23/Concat_output_0: 3f2533b6
/model.19/m.0/m/m.0/cv2/conv/Conv_output_0: 3e448d22
/model.23/Reshape_output_0: 3f2533b6
/model.19/m.0/m/m.0/cv2/act/Sigmoid_output_0: 3c010204
/model.19/m.0/m/m.0/cv2/act/Mul_output_0: 3e448d22
/model.19/m.0/m/m.0/Add_output_0: 3e42fc8a
/model.19/m.0/m/m.1/cv1/conv/Conv_output_0: 3e1462e7
/model.19/m.0/m/m.1/cv1/act/Sigmoid_output_0: 3c010204
/model.19/m.0/m/m.1/cv1/act/Mul_output_0: 3e133b52
/model.19/m.0/m/m.1/cv2/conv/Conv_output_0: 3e8748b8
/model.19/m.0/m/m.1/cv2/act/Sigmoid_output_0: 3c010204
/model.19/m.0/m/m.1/cv2/act/Mul_output_0: 3e8748b8
/model.19/m.0/m/m.1/Add_output_0: 3e88ef19
/model.19/m.0/Concat_output_0: 3e88ef19
/model.19/m.0/cv3/conv/Conv_output_0: 3eb3718c
/model.19/m.0/cv3/act/Sigmoid_output_0: 3c010204
/model.19/m.0/cv3/act/Mul_output_0: 3eb3718c
/model.19/Concat_output_0: 3eb3718c
/model.19/cv2/conv/Conv_output_0: 3e9aaacf
/model.19/cv2/act/Sigmoid_output_0: 3c010204
/model.19/cv2/act/Mul_output_0: 3e9aaacf
/model.20/conv/Conv_output_0: 3e572c9a
/model.23/cv2.1/cv2.1.0/conv/Conv_output_0: 3f22be85
/model.23/cv3.1/cv3.1.0/cv3.1.0.0/conv/Conv_output_0: 3ee6bae0
/model.20/act/Sigmoid_output_0: 3c010204
/model.23/cv2.1/cv2.1.0/act/Sigmoid_output_0: 3c010204
/model.23/cv3.1/cv3.1.0/cv3.1.0.0/act/Sigmoid_output_0: 3c010204
/model.20/act/Mul_output_0: 3e572c9a
/model.23/cv2.1/cv2.1.0/act/Mul_output_0: 3f22be85
/model.23/cv3.1/cv3.1.0/cv3.1.0.0/act/Mul_output_0: 3ee4b3de
/model.21/Concat_output_0: 3e572c9a
/model.23/cv2.1/cv2.1.1/conv/Conv_output_0: 3f479a98
/model.23/cv3.1/cv3.1.0/cv3.1.0.1/conv/Conv_output_0: 3ea00e5b
/model.22/cv1/conv/Conv_output_0: 3e82d3a7
/model.23/cv2.1/cv2.1.1/act/Sigmoid_output_0: 3c010204
/model.23/cv3.1/cv3.1.0/cv3.1.0.1/act/Sigmoid_output_0: 3c010204
/model.22/cv1/act/Sigmoid_output_0: 3c010204
/model.23/cv2.1/cv2.1.1/act/Mul_output_0: 3f02c79c
/model.23/cv3.1/cv3.1.0/cv3.1.0.1/act/Mul_output_0: 3ea00e5b
/model.22/cv1/act/Mul_output_0: 3e82d3a7
/model.23/cv2.1/cv2.1.2/Conv_output_0: 3f7cb5f9
/model.23/cv3.1/cv3.1.1/cv3.1.1.0/conv/Conv_output_0: 3f4c68f9
/model.22/Split_output_0: 3e82d3a7
/model.22/Split_output_1: 3e638f35
/model.23/cv3.1/cv3.1.1/cv3.1.1.0/act/Sigmoid_output_0: 3c010204
/model.22/m.0/cv1/conv/Conv_output_0: 3db3f48d
/model.22/m.0/cv2/conv/Conv_output_0: 3e7f6e85
/model.23/cv3.1/cv3.1.1/cv3.1.1.0/act/Mul_output_0: 3f4c68f9
/model.22/m.0/cv1/act/Sigmoid_output_0: 3c01018b
/model.22/m.0/cv2/act/Sigmoid_output_0: 3c010204
/model.23/cv3.1/cv3.1.1/cv3.1.1.1/conv/Conv_output_0: 3f62788e
/model.22/m.0/cv1/act/Mul_output_0: 3db3f3e5
/model.22/m.0/cv2/act/Mul_output_0: 3e7f6e85
/model.23/cv3.1/cv3.1.1/cv3.1.1.1/act/Sigmoid_output_0: 3c010204
/model.22/m.0/m/m.0/cv1/conv/Conv_output_0: 3e00a309
/model.23/cv3.1/cv3.1.1/cv3.1.1.1/act/Mul_output_0: 3f62788e
/model.22/m.0/m/m.0/cv1/act/Sigmoid_output_0: 3c010201
/model.23/cv3.1/cv3.1.2/Conv_output_0: 3f9d64f8
/model.22/m.0/m/m.0/cv1/act/Mul_output_0: 3df3e0ff
/model.23/Concat_1_output_0: 3f9d64f8
/model.22/m.0/m/m.0/cv2/conv/Conv_output_0: 3e2b0112
/model.23/Reshape_1_output_0: 3f9d64f8
/model.22/m.0/m/m.0/cv2/act/Sigmoid_output_0: 3c010204
/model.22/m.0/m/m.0/cv2/act/Mul_output_0: 3e2b0112
/model.22/m.0/m/m.0/Add_output_0: 3e28d22e
/model.22/m.0/m/m.1/cv1/conv/Conv_output_0: 3e0b701d
/model.22/m.0/m/m.1/cv1/act/Sigmoid_output_0: 3c010204
/model.22/m.0/m/m.1/cv1/act/Mul_output_0: 3e0b701d
/model.22/m.0/m/m.1/cv2/conv/Conv_output_0: 3e3d9cf3
/model.22/m.0/m/m.1/cv2/act/Sigmoid_output_0: 3c010204
/model.22/m.0/m/m.1/cv2/act/Mul_output_0: 3e3d9cf3
/model.22/m.0/m/m.1/Add_output_0: 3e4d8825
/model.22/m.0/Concat_output_0: 3e7f6e85
/model.22/m.0/cv3/conv/Conv_output_0: 3eb29dda
/model.22/m.0/cv3/act/Sigmoid_output_0: 3c010204
/model.22/m.0/cv3/act/Mul_output_0: 3eb29dda
/model.22/Concat_output_0: 3eb29dda
/model.22/cv2/conv/Conv_output_0: 3ea6602b
/model.22/cv2/act/Sigmoid_output_0: 3c010204
/model.22/cv2/act/Mul_output_0: 3ea6602b
/model.23/cv2.2/cv2.2.0/conv/Conv_output_0: 3f41dc2f
/model.23/cv3.2/cv3.2.0/cv3.2.0.0/conv/Conv_output_0: 3e91355d
/model.23/cv2.2/cv2.2.0/act/Sigmoid_output_0: 3c010204
/model.23/cv3.2/cv3.2.0/cv3.2.0.0/act/Sigmoid_output_0: 3c010204
/model.23/cv2.2/cv2.2.0/act/Mul_output_0: 3f41dc2f
/model.23/cv3.2/cv3.2.0/cv3.2.0.0/act/Mul_output_0: 3e7c6e21
/model.23/cv2.2/cv2.2.1/conv/Conv_output_0: 3f6960cb
/model.23/cv3.2/cv3.2.0/cv3.2.0.1/conv/Conv_output_0: 3e061feb
/model.23/cv2.2/cv2.2.1/act/Sigmoid_output_0: 3c010204
/model.23/cv3.2/cv3.2.0/cv3.2.0.1/act/Sigmoid_output_0: 3c010204
/model.23/cv2.2/cv2.2.1/act/Mul_output_0: 3f6960cb
/model.23/cv3.2/cv3.2.0/cv3.2.0.1/act/Mul_output_0: 3e061feb
/model.23/cv2.2/cv2.2.2/Conv_output_0: 3fdddd8e
/model.23/cv3.2/cv3.2.1/cv3.2.1.0/conv/Conv_output_0: 3eea5e08
/model.23/cv3.2/cv3.2.1/cv3.2.1.0/act/Sigmoid_output_0: 3c010204
/model.23/cv3.2/cv3.2.1/cv3.2.1.0/act/Mul_output_0: 3eea5e08
/model.23/cv3.2/cv3.2.1/cv3.2.1.1/conv/Conv_output_0: 3e980c3e
/model.23/cv3.2/cv3.2.1/cv3.2.1.1/act/Sigmoid_output_0: 3c010204
/model.23/cv3.2/cv3.2.1/cv3.2.1.1/act/Mul_output_0: 3e980c3e
/model.23/cv3.2/cv3.2.2/Conv_output_0: 3f31563b
/model.23/Concat_2_output_0: 3fdddd8e
/model.23/Reshape_2_output_0: 3fdddd8e
/model.23/Concat_3_output_0: 3fdddd8e
/model.23/Split_output_0: 3fdddd8e
/model.23/Split_output_1: 3f9d64f8
/model.23/dfl/Reshape_output_0: 3fdddd8e
/model.23/Sigmoid_output_0: 3bf9c9be
/model.23/dfl/Transpose_output_0: 3fdddd8e
/model.23/dfl/Softmax_output: 3c010204
/model.23/dfl/Softmax_output_0: 3c010204
/model.23/dfl/conv/Conv_output_0: 3deddf1d
/model.23/dfl/Reshape_1_output_0: 3deddf1d
/model.23/Add_2_output_0: 3fa0a86f
/model.23/Sub_output_0: 3f1ffc12
ONNXTRT_Broadcast_109_output: 3e810204
/model.23/Slice_1_output_0: 3de6e967
/model.23/Constant_11_output_0_output: 3c810204
/model.23/Slice_output_0: 3deddf1d
/model.23/Constant_10_output_0_output: 3f204081
ONNXTRT_Broadcast_107_output: 3c810204
/model.23/Div_1_output_0: 3f20a86f
/model.23/Sub_1_output_0: 3e69681c
output0: 40a5cf4b
/model.23/Constant_12_output_0_output: 3e810204
/model.23/Mul_2_output_0: 40a5cf4b
/model.23/Add_1_output_0: 3f30cb59
/model.23/Constant_9_output_0_output: 3f204081
/model.23/Concat_4_output_0: 3f20a86f
