TRT-101303-MinMaxCalibration
images: 3c010204
/model.0/conv/Conv_output_0: 3f72b7ef
/model.0/act/Sigmoid_output_0: 3c010204
/model.0/act/Mul_output_0: 3f72b7ef
/model.1/conv/Conv_output_0: 3fdb4e78
/model.1/act/Sigmoid_output_0: 3c010204
/model.1/act/Mul_output_0: 3fc8b0c3
/model.2/cv1/conv/Conv_output_0: 3f8c0bfb
/model.2/cv1/act/Sigmoid_output_0: 3c010204
/model.2/cv1/act/Mul_output_0: 3ef5c2c3
/model.22/m.0/m/m.0/Add_output_0: 3e34b23c
/model.23/Slice_1_output_0: 3df1dd6d
/model.23/Sub_1_output_0: 3e71da7f
/model.23/Add_8_output_0: 3e810204
/model.22/m.0/m/m.1/Add_output_0: 3e81414f
/model.22/m.0/cv1/conv/Conv_output_0: 3daaca3e
/model.2/Split_output_0: 3ef5c2c3
/model.23/Concat_2_output_0: 3fa6babf
/model.23/Reshape_15_output_0: 3e9f3e7d
/model.23/Range_4_output_0: 3e9d3a75
/model.2/Split_output_1: 3e680fde
/model.2/m.0/cv1/conv/Conv_output_0: 3e7a5bef
/model.2/m.0/cv1/act/Sigmoid_output_0: 3c010204
/model.2/m.0/cv1/act/Mul_output_0: 3e1cca16
/model.2/m.0/cv2/conv/Conv_output_0: 3e7817e8
/model.2/m.0/cv2/act/Sigmoid_output_0: 3c010204
/model.2/m.0/cv2/act/Mul_output_0: 3e6f5bed
/model.2/m.0/Add_output_0: 3e815d17
/model.2/cv2/conv/Conv_output_0: 3e998892
/model.2/cv2/act/Sigmoid_output_0: 3c010204
/model.2/cv2/act/Mul_output_0: 3e574598
/model.3/conv/Conv_output_0: 3e1ac2b9
/model.3/act/Sigmoid_output_0: 3c010204
/model.3/act/Mul_output_0: 3e0bad31
/model.4/cv1/conv/Conv_output_0: 3e0686c6
/model.4/cv1/act/Sigmoid_output_0: 3c010177
/model.4/cv1/act/Mul_output_0: 3db1740e
ONNXTRT_ShapeShuffle_238_output: 3c010204
/model.22/cv1/conv/Conv_output_0: 3e76911c
/model.23/Reshape_9_output_0: 3f204081
ONNXTRT_ShapeShuffle_228_output: 3c010204
ONNXTRT_ShapeShuffle_245_output: 0
/model.23/Expand_2_output_0: 3f204081
/model.4/Split_output_0: 3db1740e
/model.23/dfl/Reshape_1_output_0: 3df1dd6d
/model.23/cv2.1/cv2.1.1/conv/Conv_output_0: 3eb53ec1
/model.23/Concat_20_output_0: 3e9f3e7d
/model.4/Split_output_1: 3d8e7261
/model.4/m.0/cv1/conv/Conv_output_0: 3da71504
/model.4/m.0/cv1/act/Sigmoid_output_0: 3c0100f7
/model.4/m.0/cv1/act/Mul_output_0: 3da713a7
/model.4/m.0/cv2/conv/Conv_output_0: 3de177b4
/model.4/m.0/cv2/act/Sigmoid_output_0: 3c0101dc
/model.4/m.0/cv2/act/Mul_output_0: 3dc593cd
/model.4/m.0/Add_output_0: 3dc8ef2c
/model.4/Concat_output_0: 3dc8ef2c
/model.4/cv2/conv/Conv_output_0: 3e23ee28
/model.4/cv2/act/Sigmoid_output_0: 3c0101fd
/model.4/cv2/act/Mul_output_0: 3de0f541
/model.5/conv/Conv_output_0: 3e0c71ed
/model.5/act/Sigmoid_output_0: 3c0101fd
/model.5/act/Mul_output_0: 3de284d2
/model.6/cv1/conv/Conv_output_0: 3e33ec6b
/model.6/cv1/act/Sigmoid_output_0: 3c010204
/model.6/cv1/act/Mul_output_0: 3e306e39
/model.23/Concat_23_output_0: 3e810204
/model.23/Split_1_output_0: 3ebebc3d
/model.22/m.0/m/m.1/cv1/conv/Conv_output_0: 3e1603b2
ONNXTRT_Broadcast_323_output: 3b810204
/model.22/m.0/cv3/act/Sigmoid_output_0: 3c010204
/model.23/Range_5_output_0: 3e9d3a75
/model.6/Split_output_0: 3df9b264
/model.23/Reshape_2_output_0: 3fa6babf
ONNXTRT_ShapeShuffle_309_output: 3c010204
/model.23/cv3.2/cv3.2.2/Conv_output_0: 3fa6babf
/model.6/Split_output_1: 3e306e39
/model.6/m.0/cv1/conv/Conv_output_0: 3db56204
/model.6/m.0/cv2/conv/Conv_output_0: 3e2a0c90
/model.6/m.0/cv1/act/Sigmoid_output_0: 3c010195
/model.6/m.0/cv2/act/Sigmoid_output_0: 3c010204
/model.6/m.0/cv1/act/Mul_output_0: 3db56168
/model.6/m.0/cv2/act/Mul_output_0: 3e2a0c90
/model.6/m.0/m/m.0/cv1/conv/Conv_output_0: 3db2e896
/model.6/m.0/m/m.0/cv1/act/Sigmoid_output_0: 3c010089
/model.6/m.0/m/m.0/cv1/act/Mul_output_0: 3da16de1
/model.6/m.0/m/m.0/cv2/conv/Conv_output_0: 3dbc3d6d
/model.6/m.0/m/m.0/cv2/act/Sigmoid_output_0: 3c01017a
/model.6/m.0/m/m.0/cv2/act/Mul_output_0: 3db1c9aa
/model.6/m.0/m/m.0/Add_output_0: 3dcfb436
/model.6/m.0/m/m.1/cv1/conv/Conv_output_0: 3dc7b676
/model.6/m.0/m/m.1/cv1/act/Sigmoid_output_0: 3c0101e1
/model.6/m.0/m/m.1/cv1/act/Mul_output_0: 3dc7b63f
/model.6/m.0/m/m.1/cv2/conv/Conv_output_0: 3e08fd5e
/model.6/m.0/m/m.1/cv2/act/Sigmoid_output_0: 3c010204
/model.6/m.0/m/m.1/cv2/act/Mul_output_0: 3e02ffec
/model.6/m.0/m/m.1/Add_output_0: 3e138dc1
/model.6/m.0/Concat_output_0: 3e2a0c90
/model.6/m.0/cv3/conv/Conv_output_0: 3dd8b2fb
/model.6/m.0/cv3/act/Sigmoid_output_0: 3c0101f1
/model.6/m.0/cv3/act/Mul_output_0: 3dd210dc
/model.6/Concat_output_0: 3e306e39
/model.6/cv2/conv/Conv_output_0: 3e274077
/model.6/cv2/act/Sigmoid_output_0: 3c010204
/model.6/cv2/act/Mul_output_0: 3e274077
/model.7/conv/Conv_output_0: 3de4735f
/model.7/act/Sigmoid_output_0: 3c0101f9
/model.7/act/Mul_output_0: 3dda82cb
/model.8/cv1/conv/Conv_output_0: 3e2fd655
/model.8/cv1/act/Sigmoid_output_0: 3c010204
/model.8/cv1/act/Mul_output_0: 3e2fd655
/model.22/cv2/conv/Conv_output_0: 3e60a5a6
/model.23/cv3.2/cv3.2.1/cv3.2.1.0/conv/Conv_output_0: 3f3dbda0
/model.23/cv3.2/cv3.2.1/cv3.2.1.0/act/Sigmoid_output_0: 3c010204
/model.23/cv2.2/cv2.2.2/Conv_output_0: 3ebebc3d
/model.23/cv3.2/cv3.2.1/cv3.2.1.0/act/Mul_output_0: 3f3dbda0
/model.23/cv3.2/cv3.2.0/cv3.2.0.1/act/Mul_output_0: 3e41d475
/model.8/Split_output_0: 3e2fd655
/model.23/cv3.2/cv3.2.0/cv3.2.0.1/act/Sigmoid_output_0: 3c010204
/model.22/m.0/cv1/act/Mul_output_0: 3daac926
/model.23/cv3.1/cv3.1.1/cv3.1.1.1/act/Mul_output_0: 3feff976
/model.8/Split_output_1: 3e2a7bc5
/model.8/m.0/cv1/conv/Conv_output_0: 3e080924
/model.8/m.0/cv2/conv/Conv_output_0: 3e147347
/model.8/m.0/cv1/act/Sigmoid_output_0: 3c010204
/model.8/m.0/cv2/act/Sigmoid_output_0: 3c010204
/model.8/m.0/cv1/act/Mul_output_0: 3e080924
/model.8/m.0/cv2/act/Mul_output_0: 3e147347
/model.8/m.0/m/m.0/cv1/conv/Conv_output_0: 3e0d043c
/model.8/m.0/m/m.0/cv1/act/Sigmoid_output_0: 3c010204
/model.8/m.0/m/m.0/cv1/act/Mul_output_0: 3e0d043c
/model.8/m.0/m/m.0/cv2/conv/Conv_output_0: 3e215944
/model.8/m.0/m/m.0/cv2/act/Sigmoid_output_0: 3c010204
/model.8/m.0/m/m.0/cv2/act/Mul_output_0: 3e215944
/model.8/m.0/m/m.0/Add_output_0: 3e1f253c
/model.8/m.0/m/m.1/cv1/conv/Conv_output_0: 3dfe35e7
/model.8/m.0/m/m.1/cv1/act/Sigmoid_output_0: 3c010203
/model.8/m.0/m/m.1/cv1/act/Mul_output_0: 3dfa44cb
/model.8/m.0/m/m.1/cv2/conv/Conv_output_0: 3e37d1c3
/model.8/m.0/m/m.1/cv2/act/Sigmoid_output_0: 3c010204
/model.8/m.0/m/m.1/cv2/act/Mul_output_0: 3e37d1c3
/model.8/m.0/m/m.1/Add_output_0: 3e4aff9d
/model.8/m.0/Concat_output_0: 3e4aff9d
/model.8/m.0/cv3/conv/Conv_output_0: 3e2c2e2f
/model.8/m.0/cv3/act/Sigmoid_output_0: 3c010204
/model.8/m.0/cv3/act/Mul_output_0: 3e2c2e2f
/model.8/Concat_output_0: 3e2fd655
/model.8/cv2/conv/Conv_output_0: 3e058069
/model.8/cv2/act/Sigmoid_output_0: 3c010204
/model.8/cv2/act/Mul_output_0: 3e058069
/model.9/cv1/conv/Conv_output_0: 3df848c7
/model.9/cv1/act/Sigmoid_output_0: 3c010202
/model.9/cv1/act/Mul_output_0: 3df848c3
/model.9/m/MaxPool_output_0: 3df848c3
/model.9/m_1/MaxPool_output_0: 3df848c3
/model.9/m_2/MaxPool_output_0: 3df848c3
/model.9/Concat_output_0: 3df848c3
/model.9/cv2/conv/Conv_output_0: 3daa6143
/model.9/cv2/act/Sigmoid_output_0: 3c00fac3
/model.9/cv2/act/Mul_output_0: 3d87d376
/model.10/cv1/conv/Conv_output_0: 3e232d2c
/model.10/cv1/act/Sigmoid_output_0: 3c010204
/model.10/cv1/act/Mul_output_0: 3e1dc7c8
/model.23/Unsqueeze_9_output_0: 3e9f3e7d
/model.23/cv3.2/cv3.2.0/cv3.2.0.0/act/Sigmoid_output_0: 3c010204
/model.23/cv3.2/cv3.2.0/cv3.2.0.1/conv/Conv_output_0: 3e41d475
/model.23/cv3.2/cv3.2.0/cv3.2.0.0/conv/Conv_output_0: 3f000b0c
/model.23/cv2.2/cv2.2.1/act/Sigmoid_output_0: 3c010204
ONNXTRT_Broadcast_321_output: 3b810204
/model.10/Split_output_0: 3e1dc579
/model.22/cv2/act/Mul_output_0: 3e60a5a6
/model.22/cv2/act/Sigmoid_output_0: 3c010204
/model.22/Concat_output_0: 3e76911c
/model.10/Split_output_1: 3e1dc7c8
/model.22/m.0/cv3/act/Mul_output_0: 3e2ea214
/model.23/Reshape_12_output_0: 3f204081
/model.10/m/m.0/attn/qkv/conv/Conv_output_0: 3dccef2f
/model.23/Concat_24_output_0: 3fa10f7b
/model.22/m.0/m/m.1/cv2/act/Mul_output_0: 3e835854
/model.23/Unsqueeze_6_output_0: 3f204081
/model.23/Expand_3_output_0: 3f204081
/model.23/Reshape_16_output_0: 3e9f3e7d
/model.23/cv3.2/cv3.2.1/cv3.2.1.1/act/Sigmoid_output_0: 3c010204
ONNXTRT_Broadcast_242_output: 3b810204
/model.23/Range_2_output_0: 3f1f3e7d
(Unnamed Layer* 509) [Constant]_output: 0
/model.22/m.0/m/m.1/cv2/act/Sigmoid_output_0: 3c010204
ONNXTRT_Broadcast_437_output: 3c810204
/model.23/Expand_output_0: 3fa0c183
/model.23/dfl/Softmax_output: 3c010200
/model.23/cv3.1/cv3.1.2/Conv_output_0: 3f784411
/model.23/Reshape_14_output_0: 3e9f3e7d
/model.23/Transpose_output_0: 3fa0c183
/model.23/cv3.2/cv3.2.1/cv3.2.1.1/act/Mul_output_0: 3f355732
/model.10/m/m.0/attn/Reshape_output_0: 3dccef2f
/model.23/Expand_1_output_0: 3fa0c183
/model.23/cv2.1/cv2.1.1/act/Sigmoid_output_0: 3c010204
/model.22/cv1/act/Sigmoid_output_0: 3c010204
/model.23/Unsqueeze_4_output_0: 3fa0c183
/model.23/Reshape_17_output_0: 3e9f3e7d
/model.22/m.0/cv2/act/Sigmoid_output_0: 3c010204
/model.10/m/m.0/attn/Split_output_0: 3d810c3d
/model.23/cv3.1/cv3.1.1/cv3.1.1.0/act/Sigmoid_output_0: 3c010204
/model.23/dfl/Reshape_output_0: 3ebebc3d
/model.23/Concat_10_output_0: 3fa0c183
/model.10/m/m.0/attn/Split_output_1: 3daf8973
/model.21/Concat_output_0: 3e10396b
/model.23/Concat_1_output_0: 3f784411
/model.22/m.0/Concat_output_0: 3e81414f
/model.10/m/m.0/attn/Split_output_2: 3dccef2f
/model.10/m/m.0/attn/Transpose_output_0: 3d810c3d
/model.10/m/m.0/attn/Reshape_2_output_0: 3dccef2f
/model.10/m/m.0/attn/MatMul_output_0: 3fc91e49
/model.10/m/m.0/attn/pe/conv/Conv_output_0: 3d831a97
/model.10/m/m.0/attn/Constant_6_output_0_output: 3ab671d7
ONNXTRT_Broadcast_output: 3ab671d7
/model.10/m/m.0/attn/Mul_1_output_0: 3e8e364d
/model.23/Sub_output_0: 3fa07ddd
/model.23/Split_1_output_1: 3fa6babf
/model.10/m/m.0/attn/Transpose_1_output_0: 3bda9084
/model.10/m/m.0/attn/MatMul_1_output_0: 3dbf9feb
/model.10/m/m.0/attn/Reshape_1_output_0: 3dbf9feb
/model.10/m/m.0/attn/Add_output_0: 3d992302
/model.10/m/m.0/attn/proj/conv/Conv_output_0: 3db474bd
/model.10/m/m.0/Add_output_0: 3e16c19e
/model.10/m/m.0/ffn/ffn.0/conv/Conv_output_0: 3df87e91
/model.10/m/m.0/ffn/ffn.0/act/Sigmoid_output_0: 3c01012a
/model.10/m/m.0/ffn/ffn.0/act/Mul_output_0: 3daa5ded
/model.10/m/m.0/ffn/ffn.1/conv/Conv_output_0: 3d995a8a
/model.10/m/m.0/Add_1_output_0: 3dea1b04
/model.10/Concat_output_0: 3e1dc579
/model.10/cv2/conv/Conv_output_0: 3dd64e8c
/model.10/cv2/act/Sigmoid_output_0: 3c01016f
/model.10/cv2/act/Mul_output_0: 3db077ee
/model.11/Resize_output_0: 3db077ee
/model.12/Concat_output_0: 3e274077
/model.13/cv1/conv/Conv_output_0: 3df241b3
/model.13/cv1/act/Sigmoid_output_0: 3c0101b5
/model.13/cv1/act/Mul_output_0: 3dbabb6c
/model.23/ConstantOfShape_2_output_0: 0
/model.23/Reshape_13_output_0: 3e9f3e7d
(Unnamed Layer* 635) [Constant]_output: 0
/model.22/m.0/m/m.1/cv1/act/Sigmoid_output_0: 3c010204
/model.23/Transpose_1_output_0: 3e810204
/model.23/Unsqueeze_10_output_0: 3e9f3e7d
/model.13/Split_output_0: 3dbabb6c
ONNXTRT_Broadcast_444_output: 3e810204
/model.23/Add_10_output_0: 3faa671b
/model.23/dfl/Transpose_output_0: 3ebebc3d
/model.13/Split_output_1: 3d833eac
/model.13/m.0/cv1/conv/Conv_output_0: 3de7f6cf
/model.13/m.0/cv1/act/Sigmoid_output_0: 3c0101f4
/model.13/m.0/cv1/act/Mul_output_0: 3dd4b134
/model.13/m.0/cv2/conv/Conv_output_0: 3e06a214
/model.13/m.0/cv2/act/Sigmoid_output_0: 3c010204
/model.13/m.0/cv2/act/Mul_output_0: 3e0568c5
/model.13/m.0/Add_output_0: 3e033cde
/model.13/Concat_output_0: 3e033cde
/model.13/cv2/conv/Conv_output_0: 3dd3e1df
/model.13/cv2/act/Sigmoid_output_0: 3c010190
/model.13/cv2/act/Mul_output_0: 3db4a48d
/model.14/Resize_output_0: 3db4a48d
/model.16/cv1/conv/Conv_output_0: 3dc47920
/model.16/cv1/act/Sigmoid_output_0: 3c0101d9
/model.16/cv1/act/Mul_output_0: 3dc478df
ONNXTRT_Broadcast_250_output: 3e010204
/model.23/Squeeze_1_output_0_output: 3e010204
/model.23/Expand_5_output_0: 3e9f3e7d
/model.22/m.0/m/m.1/cv1/act/Mul_output_0: 3e1603b2
/model.22/m.0/m/m.1/cv2/conv/Conv_output_0: 3e835854
/model.23/Reshape_11_output_0: 3f204081
/model.16/Split_output_0: 3dc478df
ONNXTRT_ShapeShuffle_319_output: 3c010204
/model.23/cv3.2/cv3.2.1/cv3.2.1.1/conv/Conv_output_0: 3f355732
/model.23/cv3.2/cv3.2.0/cv3.2.0.0/act/Mul_output_0: 3ef2f5e3
/model.16/Split_output_1: 3d3682b7
/model.16/m.0/cv1/conv/Conv_output_0: 3dd72a79
/model.16/m.0/cv1/act/Sigmoid_output_0: 3c0101b5
/model.16/m.0/cv1/act/Mul_output_0: 3dbaba39
/model.16/m.0/cv2/conv/Conv_output_0: 3df5e01d
/model.16/m.0/cv2/act/Sigmoid_output_0: 3c010202
/model.16/m.0/cv2/act/Mul_output_0: 3df5e019
/model.16/m.0/Add_output_0: 3df43b76
/model.16/Concat_output_0: 3df43b76
/model.16/cv2/conv/Conv_output_0: 3ded896b
/model.16/cv2/act/Sigmoid_output_0: 3c0101fe
/model.16/cv2/act/Mul_output_0: 3de493c2
/model.17/conv/Conv_output_0: 3df6a1fe
/model.23/cv2.0/cv2.0.0/conv/Conv_output_0: 3e1e6929
/model.23/cv3.0/cv3.0.0/cv3.0.0.0/conv/Conv_output_0: 3eb6d8ae
/model.17/act/Sigmoid_output_0: 3c010202
/model.23/cv2.0/cv2.0.0/act/Sigmoid_output_0: 3c0101ef
/model.23/cv3.0/cv3.0.0/cv3.0.0.0/act/Sigmoid_output_0: 3c010204
/model.17/act/Mul_output_0: 3df6a1fa
/model.23/cv2.0/cv2.0.0/act/Mul_output_0: 3dcfc7ad
/model.23/cv3.0/cv3.0.0/cv3.0.0.0/act/Mul_output_0: 3e359d7d
/model.18/Concat_output_0: 3df6a1fa
/model.23/cv2.0/cv2.0.1/conv/Conv_output_0: 3eb06504
/model.23/cv3.0/cv3.0.0/cv3.0.0.1/conv/Conv_output_0: 3e0a9314
/model.19/cv1/conv/Conv_output_0: 3e11d702
/model.23/cv2.0/cv2.0.1/act/Sigmoid_output_0: 3c010204
/model.23/cv3.0/cv3.0.0/cv3.0.0.1/act/Sigmoid_output_0: 3c010204
/model.19/cv1/act/Sigmoid_output_0: 3c010204
/model.23/cv2.0/cv2.0.1/act/Mul_output_0: 3eb06504
/model.23/cv3.0/cv3.0.0/cv3.0.0.1/act/Mul_output_0: 3e0a9314
/model.19/cv1/act/Mul_output_0: 3e05a043
/model.23/cv2.0/cv2.0.2/Conv_output_0: 3dd81fe7
/model.23/cv3.0/cv3.0.1/cv3.0.1.0/conv/Conv_output_0: 3ed03b02
/model.23/cv3.1/cv3.1.0/cv3.1.0.1/conv/Conv_output_0: 3e2e0f6f
/model.23/Mul_5_output_0: 41210f7b
/model.23/Reshape_8_output_0: 3f204081
/model.23/Squeeze_2_output_0_output: 3e810204
/model.23/ConstantOfShape_1_output_0: 0
/model.23/Reshape_10_output_0: 3f204081
/model.19/Split_output_0: 3e05a043
/model.23/cv3.1/cv3.1.1/cv3.1.1.0/act/Mul_output_0: 3f84866b
/model.23/cv3.1/cv3.1.0/cv3.1.0.1/act/Sigmoid_output_0: 3c010204
/model.23/Unsqueeze_12_output_0: 3fa0c183
/model.19/Split_output_1: 3dcf87f8
/model.23/cv3.0/cv3.0.1/cv3.0.1.0/act/Sigmoid_output_0: 3c010204
/model.19/m.0/cv1/conv/Conv_output_0: 3defe4ce
/model.23/cv3.0/cv3.0.1/cv3.0.1.0/act/Mul_output_0: 3ed03b02
/model.19/m.0/cv1/act/Sigmoid_output_0: 3c010201
/model.23/cv3.0/cv3.0.1/cv3.0.1.1/conv/Conv_output_0: 3f4bfcfb
/model.19/m.0/cv1/act/Mul_output_0: 3defe4c8
/model.23/cv3.0/cv3.0.1/cv3.0.1.1/act/Sigmoid_output_0: 3c010204
/model.19/m.0/cv2/conv/Conv_output_0: 3e829ae9
/model.23/cv3.0/cv3.0.1/cv3.0.1.1/act/Mul_output_0: 3f4bfcfb
/model.19/m.0/cv2/act/Sigmoid_output_0: 3c010204
/model.23/cv3.0/cv3.0.2/Conv_output_0: 3ee3fc5d
/model.19/m.0/cv2/act/Mul_output_0: 3e829ae9
/model.23/Concat_output_0: 3ee3fc5d
/model.19/m.0/Add_output_0: 3e817b92
ONNXTRT_ShapeShuffle_326_output: 0
/model.22/m.0/m/m.0/cv2/act/Mul_output_0: 3e361e1e
/model.19/Concat_output_0: 3e817b92
/model.23/Div_1_output_0: 3fa10f7b
/model.22/m.0/m/m.0/cv2/act/Sigmoid_output_0: 3c010204
/model.23/Range_3_output_0: 3f1f3e7d
/model.19/cv2/conv/Conv_output_0: 3e68bcb4
/model.23/Slice_output_0: 3df1dc5a
/model.23/Constant_67_output_0_output: 3c810204
/model.23/cv3.1/cv3.1.1/cv3.1.1.0/conv/Conv_output_0: 3f84866b
/model.23/Concat_6_output_0: 3fa6babf
/model.19/cv2/act/Sigmoid_output_0: 3c010204
ONNXTRT_Broadcast_331_output: 3e810204
/model.23/dfl/Softmax_output_0: 3c010200
/model.23/cv3.1/cv3.1.1/cv3.1.1.1/act/Sigmoid_output_0: 3c010204
/model.23/Constant_14_output_0_output: 0
/model.23/Constant_15_output_0_output: 3c010204
/model.23/cv2.1/cv2.1.1/act/Mul_output_0: 3e87275d
/model.22/m.0/m/m.0/cv2/conv/Conv_output_0: 3e361e1e
/model.23/Concat_15_output_0: 3f204081
/model.23/Unsqueeze_7_output_0: 3f204081
/model.23/dfl/conv/Conv_output_0: 3df1dd6d
output0: 41210f7b
/model.23/Sigmoid_output_0: 3bf808ed
/model.23/Range_output_0: 3fa04081
ONNXTRT_ShapeShuffle_146_output: 3c010204
/model.23/Add_11_output_0: 40210f7b
/model.23/cv2.2/cv2.2.1/act/Mul_output_0: 3e4c6e2b
/model.23/cv3.1/cv3.1.1/cv3.1.1.1/conv/Conv_output_0: 3feff976
/model.22/m.0/m/m.0/cv1/conv/Conv_output_0: 3e2c8599
/model.22/m.0/cv2/conv/Conv_output_0: 3e5cfb4e
ONNXTRT_Broadcast_240_output: 3b810204
/model.23/cv3.1/cv3.1.0/cv3.1.0.1/act/Mul_output_0: 3e1c4b01
/model.23/Range_1_output_0: 3fa04081
ONNXTRT_ShapeShuffle_156_output: 3c010204
/model.23/Reshape_1_output_0: 3f784411
/model.19/cv2/act/Mul_output_0: 3e670b3a
/model.23/Reshape_output_0: 3ee3fc5d
/model.23/Constant_16_output_0_output: 3b810204
ONNXTRT_Broadcast_159_output: 3b810204
/model.23/Reshape_4_output_0: 3fa0c183
ONNXTRT_Broadcast_161_output: 3b810204
/model.23/Reshape_3_output_0: 3fa0c183
/model.23/Add_5_output_0: 3e010204
/model.22/m.0/m/m.0/cv1/act/Sigmoid_output_0: 3c010204
/model.20/conv/Conv_output_0: 3e10396b
/model.23/cv2.1/cv2.1.0/conv/Conv_output_0: 3e6dbc9b
/model.23/cv3.1/cv3.1.0/cv3.1.0.0/conv/Conv_output_0: 3ebd3c7a
(Unnamed Layer* 383) [Constant]_output: 0
ONNXTRT_ShapeShuffle_164_output: 0
/model.23/ConstantOfShape_output_0: 0
/model.23/cv2.2/cv2.2.0/act/Mul_output_0: 3de64d5f
/model.23/cv2.2/cv2.2.0/act/Sigmoid_output_0: 3c0101ff
/model.23/cv2.2/cv2.2.1/conv/Conv_output_0: 3e4c6e2b
/model.23/cv2.2/cv2.2.0/conv/Conv_output_0: 3de64d68
/model.23/Reshape_5_output_0: 3fa0c183
/model.23/Reshape_6_output_0: 3fa0c183
/model.20/act/Sigmoid_output_0: 3c010204
/model.23/cv2.1/cv2.1.0/act/Sigmoid_output_0: 3c010204
/model.23/cv3.1/cv3.1.0/cv3.1.0.0/act/Sigmoid_output_0: 3c010204
/model.23/Squeeze_output_0_output: 3d810204
ONNXTRT_Broadcast_169_output: 3d810204
/model.23/Add_2_output_0: 3d810204
/model.22/cv1/act/Mul_output_0: 3e76911c
/model.20/act/Mul_output_0: 3e10396b
/model.23/cv2.1/cv2.1.0/act/Mul_output_0: 3e6dbc9b
/model.23/cv3.1/cv3.1.0/cv3.1.0.0/act/Mul_output_0: 3eb6506c
/model.23/Concat_22_output_0: 3fa0c183
/model.22/m.0/cv1/act/Sigmoid_output_0: 3c010130
/model.22/m.0/cv2/act/Mul_output_0: 3e5cfb4e
/model.22/Split_output_1: 3e76911c
/model.22/Split_output_0: 3e166120
/model.23/Expand_4_output_0: 3e9f3e7d
/model.23/Reshape_7_output_0: 3fa0c183
/model.23/Unsqueeze_3_output_0: 3fa0c183
/model.22/m.0/m/m.0/cv1/act/Mul_output_0: 3e2c8599
/model.22/m.0/cv3/conv/Conv_output_0: 3e2ea214
/model.23/cv2.1/cv2.1.2/Conv_output_0: 3ebced37
